de 153531
en 135961
k@@ 95260
een 91750
e@@ 81342
het 79100
van 75324
. 75233
p@@ 67192
d@@ 66177
m@@ 63833
dat 62877
, 61866
ge@@ 57894
in 57378
st@@ 56982
t 56760
is 56613
te 56500
t@@ 56456
s@@ 56073
v@@ 54552
b@@ 54461
be@@ 54062
u@@ 54052
d 53660
g@@ 52533
en@@ 52120
ver@@ 50604
z@@ 50048
e 49564
er 49070
c@@ 48038
s 46856
el@@ 46829
o@@ 46736
er@@ 46500
en. 46123
je 45628
on@@ 44639
l@@ 44556
a@@ 43685
n@@ 41232
i@@ 38261
h@@ 37061
f@@ 36804
ik 36544
we 36396
re@@ 36150
den 34950
die 34787
in@@ 34515
ie@@ 32928
w@@ 32255
k 31046
or@@ 30903
g 30777
le@@ 29764
op 28988
ar@@ 28634
an@@ 28631
en, 28188
ze 26954
om 26857
oo@@ 26513
da@@ 26100
wer@@ 25895
we@@ 25597
zijn 25297
r@@ 25150
op@@ 24924
niet 24614
als 24259
met 24256
et@@ 24130
ten 24098
: 23384
at@@ 22964
ij@@ 22895
om@@ 22825
voor 22466
Ik 22298
al@@ 22177
is@@ 22176
ken 21915
de@@ 21607
gel@@ 21436
sch@@ 21418
te@@ 21109
ing 20872
oe@@ 20828
l 20804
gen 20508
it@@ 20343
ur@@ 19559
aan 19553
ro@@ 19279
j@@ 19129
t. 19074
gen@@ 19006
a 18948
ie 18885
aa@@ 18798
do@@ 18302
Het 17937
ter@@ 17411
mo@@ 17286
me@@ 17220
el 17174
ra@@ 17115
m 16831
al 16804
wi@@ 16681
ing@@ 16301
aan@@ 16300
he@@ 16290
et 16172
den@@ 16145
-@@ 16018
f 16005
pro@@ 15425
wat 15263
ijk@@ 15084
zo@@ 14994
eer@@ 14967
n 14878
ze@@ 14848
d. 14735
ch@@ 14730
ei@@ 14551
sp@@ 14496
M@@ 14341
t, 14307
naar 14088
ma@@ 13973
p 13919
over 13913
der@@ 13812
deze 13748
st 13689
ijk 13544
to@@ 13508
wa@@ 13502
T@@ 13407
maar 13389
il@@ 13328
dit 13273
uit@@ 13267
lan@@ 13104
"@@ 13101
du@@ 13031
was 12843
voor@@ 12809
We 12801
am@@ 12736
ven 12652
ont@@ 12632
aar@@ 12480
aar 12442
ste 12367
dan 12329
ig@@ 12287
of 12269
der 12264
N@@ 12234
ik@@ 12097
gro@@ 12054
cht 11999
ken@@ 11962
vo@@ 11936
O@@ 11912
del@@ 11827
H@@ 11751
? 11750
ru@@ 11498
s. 11473
-- 11440
S@@ 11435
mijn 11396
di@@ 11389
hebben 11158
ol@@ 11146
ou@@ 11125
A@@ 11070
D@@ 10993
En 10958
De 10926
ingen 10769
aat 10695
men@@ 10679
kunnen 10642
door 10535
y@@ 10519
kom@@ 10472
E@@ 10272
ne@@ 10269
mensen 10219
ap@@ 10059
s, 10006
d, 9997
é@@ 9991
1@@ 9933
ij 9709
kel@@ 9667
gr@@ 9633
lo@@ 9593
uit 9589
ho@@ 9585
kl@@ 9548
'@@ 9523
ons 9503
onder@@ 9388
rij@@ 9345
ha@@ 9324
Maar 9271
ste@@ 9264
per@@ 9182
0@@ 8979
ti@@ 8954
me 8928
waar@@ 8915
kan 8907
.@@ 8857
ige 8849
W@@ 8838
B@@ 8816
ë@@ 8811
C@@ 8760
so@@ 8733
den. 8716
vol@@ 8706
ul@@ 8543
la@@ 8513
eld 8478
Ze 8469
un@@ 8420
Dit 8418
ct@@ 8336
dr@@ 8243
Dat 8181
all@@ 8124
af@@ 8111
ijke 8014
ook 7997
wor@@ 7968
zijn@@ 7901
bij 7891
veel 7745
ri@@ 7718
im@@ 7692
es 7681
man@@ 7647
ander@@ 7561
gev@@ 7445
ic@@ 7438
kt 7407
hij 7369
hun 7330
ter 7322
V@@ 7296
geen 7271
onze 7262
maa@@ 7253
men 7201
zou 7134
meer 7036
je@@ 6997
ss@@ 6986
hel@@ 6982
hoe 6972
ier 6881
waar 6872
ende 6848
over@@ 6846
Z@@ 6834
nen 6809
zelf@@ 6749
aten 6742
wij@@ 6712
G@@ 6666
ier@@ 6664
lie@@ 6654
zo 6643
nog 6608
bel@@ 6535
Als 6534
ische 6498
goe@@ 6444
tot 6413
ken. 6342
con@@ 6328
2@@ 6306
Je 6266
heid 6225
o 6206
ke 6192
van@@ 6179
lijk 6138
pl@@ 6136
nie@@ 6099
w 6090
pen 6085
bl@@ 6075
K@@ 6057
ber@@ 6055
jaar 6032
ist@@ 6030
dt 6020
no@@ 5990
0 5966
se 5912
dig@@ 5905
ts 5872
ent@@ 5866
u 5863
ve@@ 5809
br@@ 5808
geb@@ 5807
heb@@ 5801
aal 5799
i 5738
it 5735
P@@ 5703
atie 5693
beg@@ 5673
iets 5643
nieu@@ 5634
J@@ 5608
gebru@@ 5598
zien 5575
ag@@ 5571
twe@@ 5564
au@@ 5563
tu@@ 5551
stu@@ 5543
lu@@ 5535
ger@@ 5518
her@@ 5509
." 5504
kun@@ 5474
L@@ 5458
wel@@ 5454
an 5381
den, 5372
aal@@ 5371
andere 5363
nu 5350
aaro@@ 5333
zie@@ 5318
heeft 5311
eren 5303
id@@ 5276
cht@@ 5237
kan@@ 5218
ot@@ 5211
mer@@ 5210
zon@@ 5164
sl@@ 5162
ein@@ 5140
aat@@ 5129
wan@@ 5117
ale 5098
In 5096
ijn@@ 5072
com@@ 5060
han@@ 5059
ran@@ 5056
moeten 5048
ach@@ 5020
vro@@ 5005
heb 5003
ster@@ 4994
Hij 4973
tijd 4944
gaan 4937
is. 4933
ens 4927
tel@@ 4919
raa@@ 4902
- 4878
toe@@ 4868
ies 4844
I@@ 4823
jullie 4803
Wa@@ 4768
hu@@ 4766
on 4761
woor@@ 4758
ur 4757
zi@@ 4756
Dus 4739
dig 4686
hoo@@ 4644
vin@@ 4641
and 4622
hier 4618
maal 4614
oor@@ 4605
llen 4543
hei@@ 4540
ed@@ 4508
lev@@ 4503
ell@@ 4494
em@@ 4413
se@@ 4397
ie. 4389
ker@@ 4364
versch@@ 4349
sel@@ 4341
k. 4332
worden 4329
sc@@ 4328
ble@@ 4311
inder@@ 4282
Er 4269
ci@@ 4266
ac@@ 4263
gen. 4239
ssen 4229
moe@@ 4201
R@@ 4185
e, 4151
pa@@ 4146
ke@@ 4134
zu@@ 4122
za@@ 4115
inter@@ 4088
ich 4083
zel@@ 4082
sy@@ 4082
" 4080
ent 4073
00 4070
ff@@ 4058
vor@@ 4038
ide@@ 4003
alle@@ 4003
ig 3994
em 3979
ef@@ 3976
gew@@ 3951
's 3938
ab@@ 3928
ir@@ 3919
ill@@ 3910
ensch@@ 3905
ant@@ 3854
ben 3824
ort 3754
eu@@ 3695
ich@@ 3693
ten. 3691
gt 3678
min@@ 3596
eit 3595
ien 3575
tij@@ 3575
gan@@ 3566
ken, 3545
su@@ 3532
ie, 3528
ben@@ 3504
♫ 3473
war@@ 3464
end 3457
for@@ 3422
ex@@ 3407
y 3401
ijn 3399
ar 3399
ut@@ 3398
F@@ 3387
hal@@ 3379
isch 3368
spe@@ 3358
sten 3353
9@@ 3336
zen 3334
sen 3324
sam@@ 3305
ko@@ 3283
icht 3283
ub@@ 3280
vi@@ 3263
gra@@ 3251
ve 3196
zei@@ 3195
ge 3191
5@@ 3187
mand 3177
alle 3168
x@@ 3165
waren 3157
inn@@ 3146
stell@@ 3112
g. 3097
De@@ 3087
kte 3064
nat@@ 3052
ess@@ 3033
3@@ 2985
na@@ 2950
pr@@ 2950
dan@@ 2939
en? 2888
ov@@ 2878
a, 2853
as@@ 2849
TE@@ 2809
sit@@ 2795
pt@@ 2765
besch@@ 2739
lei@@ 2735
ï@@ 2734
eil@@ 2720
ten, 2667
de, 2611
lich@@ 2591
les 2584
bin@@ 2583
tre@@ 2560
' 2557
ga@@ 2547
ellen 2539
gen, 2534
de. 2486
chnolog@@ 2468
e. 2456
eigen@@ 2396
kt@@ 2308
rei@@ 2305
oor 2304
icht@@ 2300
ft 2287
In@@ 2280
D 2261
?@@ 2240
4@@ 2235
bar@@ 2223
5 2212
ies@@ 2148
eine 2146
um@@ 2116
gesch@@ 2115
ten@@ 2112
j 2066
us@@ 2049
fr@@ 2010
alles 2003
art@@ 1997
ser@@ 1983
kon@@ 1970
tra@@ 1966
mu@@ 1957
ein 1950
8@@ 1943
ieren 1936
er, 1931
er. 1874
ati@@ 1844
iel@@ 1841
chte 1831
Al@@ 1825
and@@ 1757
Ver@@ 1741
fa@@ 1731
St@@ 1725
ist 1718
6@@ 1717
r 1698
7@@ 1657
og@@ 1643
olog@@ 1622
Dan@@ 1615
ch 1605
Die 1567
pass@@ 1556
man 1547
wen@@ 1501
or 1500
ob@@ 1474
te, 1462
us 1456
um 1426
ation@@ 1423
ll@@ 1414
ck@@ 1411
eft 1387
te. 1363
igen 1337
wie 1310
2 1302
Be@@ 1294
Y@@ 1292
dur@@ 1279
! 1278
h 1266
Ge@@ 1263
werden 1258
hin@@ 1243
mach@@ 1242
q@@ 1238
; 1234
We@@ 1226
U@@ 1218
ion@@ 1207
En@@ 1185
sin@@ 1177
An@@ 1155
rie@@ 1153
,@@ 1150
un 1125
fin@@ 1113
iss@@ 1082
gi@@ 1008
oll@@ 994
gl@@ 993
b 978
3 964
1 948
isch@@ 915
4 909
8 880
sie 876
ern@@ 855
% 833
Re@@ 831
x 804
bei@@ 796
A 796
6 790
Le@@ 780
ë 745
am 736
7 716
♪ 715
c 709
ull@@ 701
neu@@ 691
geh@@ 683
ir 658
Te@@ 646
Ar@@ 644
S 633
Wel@@ 613
Da@@ 602
n. 602
hr@@ 588
Sch@@ 574
9 571
im 567
Sp@@ 566
n, 532
è@@ 511
[@@ 494
iel 478
ó@@ 473
;@@ 472
ullie 452
Pro@@ 443
’@@ 438
des 431
] 427
&@@ 427
ah@@ 414
!@@ 413
/@@ 405
‘@@ 389
sa@@ 383
gu@@ 357
Au@@ 343
chn@@ 338
Un@@ 337
imm@@ 336
ber 333
” 322
eh@@ 315
“@@ 311
ss 293
dem 270
dar@@ 265
v 261
– 259
z 257
I 256
hat@@ 246
Q@@ 236
é 233
C 219
O 209
wei@@ 209
U 207
aus 201
tz@@ 199
’ 198
hn@@ 193
X@@ 191
Ein@@ 190
Er@@ 180
T 169
rau@@ 163
… 158
einen 156
viel@@ 146
— 140
N 138
einer 137
V 136
hab@@ 133
%@@ 132
ist, 129
all 127
P 119
ê@@ 116
ung@@ 115
und 115
á@@ 113
$@@ 113
kti@@ 111
ör@@ 109
noch 107
B 107
schaf@@ 105
bei 102
Gr@@ 98
ü@@ 98
K 93
à 85
ön@@ 85
aus@@ 83
M 80
í@@ 77
immer 77
G 74
dies@@ 72
ö@@ 71
]@@ 69
E 67
:@@ 64
L 63
/ 61
R 58
ih@@ 53
etz@@ 53
”@@ 51
X 47
É@@ 46
che 45
hl@@ 41
war 40
ó 37
#@@ 37
ç@@ 37
H 36
ung 34
F 33
nich@@ 32
$ 32
Q 31
​@@ 30
enn 30
+ 29
Y 29
à@@ 29
Leu@@ 29
ahr@@ 29
chen 28
ã@@ 27
hat 26
Z 26
½ 25
= 25
°@@ 25
von 24
über@@ 23
) 22
so 21
wir@@ 21
das 21
_@@ 21
wur@@ 20
ñ@@ 20
@@ 20
W 19
♫@@ 17
J 17
@@@ 16
+@@ 15
´@@ 15
Gesch@@ 15
iert 15
° 14
mit 13
ï 13
ün@@ 13
bt 12
steh@@ 12
–@@ 11
ú@@ 10
ì@@ 10
ò@@ 10
@@ 10
komm@@ 9
º@@ 9
auf@@ 9
ú 8
ä@@ 8
 8
ür@@ 7
*@@ 7
 @@ 7
zu 7
²@@ 7
ø@@ 7
± 7
á 7
`@@ 6
² 6
q 5
(@@ 5
sag@@ 5
å@@ 5
—@@ 5
nicht 5
ň@@ 5
än@@ 5
=@@ 4
mir 4
lich 4
€ 4
¼ 4
vor 4
@@ 4
í 4
อ@@ 4
^ 4
` 3
¨@@ 3
¨ 3
^@@ 3
* 3
mö@@ 3
º 3
£@@ 3
einem 3
 3
ć@@ 3
@@ 3
@@ 3
´ 3
_ 3
@ 2
…@@ 2
aber 2
î@@ 2
½@@ 2
â@@ 2
für 2
uns 2
Ó@@ 2
€@@ 2
Ö@@ 2
è 2
@@ 2
ร@@ 2
่@@ 2
Á@@ 2
¡@@ 2
♪@@ 1
Das 1
Ich 1
habe 1
sind 1
wird 1
durch 1
™@@ 1
‘ 1
¾ 1
auf 1
ā@@ 1
“ 1
dass 1
ù@@ 1
© 1
# 1
﻿@@ 1
Ü@@ 1
oder 1
» 1
Es 1
Ï@@ 1
Ò@@ 1
ย 1
ย@@ 1
Č@@ 1
  1
ć 1
Å@@ 1
ě@@ 1
ī@@ 1
ô@@ 1
seh@@ 1
