s@@ 102093
, 95746
t@@ 95726
e 87040
en 85724
die 85493
und 79166
f@@ 78787
m@@ 78479
t 71741
. 71357
er@@ 71039
der 68387
n@@ 64126
b@@ 62659
k@@ 61371
er 60300
en, 60117
h@@ 57896
st@@ 55892
d@@ 54079
in 54055
M@@ 53448
es 51652
sch@@ 50408
z@@ 49107
g@@ 48745
en@@ 48029
en. 47592
ge@@ 46338
te 46156
a@@ 46034
zu 45716
o@@ 45271
ä@@ 44749
w@@ 44496
un@@ 44387
l@@ 43946
das 43481
r@@ 43019
an@@ 42590
ten 42436
den 42432
ich 42429
S@@ 42264
ei@@ 40840
K@@ 40609
ch@@ 40392
eine 40000
ist 39653
i@@ 39158
be@@ 39129
u@@ 38489
ein 38446
ein@@ 37507
wir 37011
p@@ 36992
F@@ 36851
D@@ 36498
au@@ 34948
B@@ 34851
t, 34121
e@@ 33427
ver@@ 32329
T@@ 31241
in@@ 30655
von 30405
W@@ 30363
re@@ 29820
Sie 29630
sie 29334
n 29149
s 29146
it@@ 28614
or@@ 28585
al@@ 28089
ar@@ 27969
dass 27545
t. 27182
l 26966
H@@ 26820
P@@ 25268
at@@ 25237
ss@@ 24810
Und 24795
mit 24656
G@@ 24067
N@@ 23638
nicht 23466
ier@@ 23322
le@@ 23294
ü@@ 22964
da@@ 22852
ter@@ 22635
ig@@ 22100
on@@ 21957
ie@@ 21800
ung 21635
: 21507
L@@ 21474
A@@ 21211
ra@@ 21141
ß@@ 20570
auf 20288
m 20136
zu@@ 20041
wei@@ 19974
de 19881
ö@@ 19715
gen@@ 19606
Ich 19365
wie 19347
Z@@ 19033
-@@ 18629
et@@ 18576
an 18462
für 18215
ich@@ 18115
sp@@ 17989
de@@ 17887
sich 17838
"@@ 17723
ung@@ 17557
um 17434
lich 17229
el@@ 17173
den@@ 17026
v@@ 16888
eh@@ 16800
g 16519
einen 16518
ol@@ 16474
so 16165
is@@ 16068
gen 16046
il@@ 15910
ur@@ 15884
als 15708
hr@@ 15673
E@@ 15559
R@@ 15389
dem 15370
a 15364
St@@ 15326
ent@@ 14949
r 14930
ch 14528
man 14492
c@@ 14107
y@@ 14103
Das 14089
Sch@@ 13909
ut@@ 13885
ach@@ 13811
V@@ 13796
Ge@@ 13748
am@@ 13734
ro@@ 13231
ma@@ 13126
Es 13075
s, 13053
O@@ 12982
st 12977
nen 12945
einer 12918
C@@ 12661
was 12632
der@@ 12585
ben 12579
sind 12500
I@@ 12437
diese 12410
kl@@ 12366
ti@@ 12350
we@@ 12318
dies@@ 12253
im 12204
des 12158
ck@@ 12036
ter 12025
? 11963
Wir 11938
J@@ 11883
ir@@ 11846
on 11801
ru@@ 11721
ab@@ 11699
über 11623
ie 11537
ff@@ 11463
e, 11442
Ver@@ 11418
ell@@ 11347
auf@@ 11346
o 11338
wenn 11284
einem 11280
rei@@ 11210
om@@ 11192
te@@ 11113
cht 11067
haben 11061
wer@@ 11003
je@@ 10928
war 10847
lich@@ 10810
chen 10742
oll@@ 10691
aus@@ 10682
eit 10646
ik@@ 10632
us@@ 10596
d 10580
Pro@@ 10541
men 10510
fü@@ 10495
wi@@ 10473
än@@ 10452
ing@@ 10450
In@@ 10445
ih@@ 10364
seh@@ 10313
uns 10236
hl@@ 10147
te, 10144
ist@@ 10128
hei@@ 10099
gan@@ 10057
1@@ 9983
Ar@@ 9900
i 9877
hat@@ 9871
aus 9840
sag@@ 9700
oder 9689
br@@ 9680
so@@ 9669
j@@ 9622
wa@@ 9621
An@@ 9595
di@@ 9534
ten, 9520
sten 9463
k 9317
Be@@ 9285
her@@ 9218
geh@@ 9160
bei@@ 9151
men@@ 9144
0@@ 9143
stell@@ 9064
lei@@ 9032
b 8986
aber 8893
unser@@ 8864
Die 8859
icht@@ 8814
hal@@ 8808
lan@@ 8795
he@@ 8783
auch 8745
ber@@ 8687
u 8559
Aber 8556
la@@ 8522
Er@@ 8499
s. 8494
iel@@ 8485
Re@@ 8376
könn@@ 8275
ben@@ 8232
d, 8188
z 8168
ige 8153
ör@@ 8148
war@@ 8087
eu@@ 8079
Al@@ 8074
schaf@@ 8068
hn@@ 8057
ssen 7968
gr@@ 7854
nur 7851
Jahr@@ 7850
ag@@ 7836
em 7790
lie@@ 7720
-- 7691
ist, 7644
se 7625
Un@@ 7595
ul@@ 7546
all@@ 7508
Le@@ 7495
– 7487
sehr 7484
et 7430
ran@@ 7419
geb@@ 7407
wur@@ 7404
ge 7391
ern@@ 7353
ihr@@ 7351
Au@@ 7328
Wa@@ 7252
En@@ 7190
dar@@ 7181
zei@@ 7154
vor@@ 7137
är@@ 7120
sen 7092
Wel@@ 7071
um@@ 7022
über@@ 6986
ger@@ 6971
den, 6970
ten. 6968
ll@@ 6935
ander@@ 6919
bei 6918
ungen 6894
tz@@ 6891
äch@@ 6887
kti@@ 6884
su@@ 6879
Ein@@ 6830
lo@@ 6795
d. 6792
am 6719
iel 6711
dann 6671
wir@@ 6616
hab@@ 6612
ati@@ 6591
mich 6540
den. 6534
fa@@ 6460
U@@ 6459
noch 6458
hier 6438
mö@@ 6422
sin@@ 6417
hat 6400
f 6334
is 6326
ste 6313
also 6295
.@@ 6290
" 6277
2@@ 6266
mach@@ 6266
sam@@ 6231
for@@ 6215
and 6213
werden 6166
Ih@@ 6161
Menschen 6161
gibt 6149
dieser 6116
können 6115
ri@@ 6054
Sp@@ 6054
fin@@ 6010
gel@@ 5985
lu@@ 5926
che 5893
ation@@ 5890
0 5857
nach 5845
af@@ 5823
viel@@ 5749
ken 5716
kt@@ 5696
Wenn 5694
ah@@ 5691
te. 5675
kann 5674
etwas 5644
ies@@ 5632
kom@@ 5618
iss@@ 5603
wen@@ 5600
sel@@ 5588
vor 5580
gl@@ 5527
." 5525
ür@@ 5486
eil@@ 5447
n, 5443
steh@@ 5420
iert 5408
mer@@ 5382
gro@@ 5375
igen 5352
lichen 5347
wird 5325
mehr 5310
wür@@ 5307
x@@ 5295
kan@@ 5284
ische 5236
ahr@@ 5232
liche 5205
alle 5184
ischen 5160
rie@@ 5142
ft 5112
op@@ 5082
ill@@ 5031
zen 5015
kt 5006
ün@@ 4987
vo@@ 4965
Gesch@@ 4945
ück@@ 4941
e. 4925
wirkl@@ 4924
nich@@ 4920
mir 4917
per@@ 4917
komm@@ 4910
- 4903
rau@@ 4895
hin@@ 4874
Leu@@ 4869
habe 4862
n. 4854
gu@@ 4833
zum 4819
ies 4817
ss 4810
chte 4809
eines 4803
tra@@ 4754
mü@@ 4744
durch 4726
kon@@ 4709
ar 4708
äu@@ 4686
isch@@ 4668
se@@ 4661
un 4650
änder@@ 4637
etzt 4591
er, 4567
im@@ 4560
immer 4557
ion@@ 4548
inn@@ 4544
etz@@ 4541
me 4529
ieren 4487
all 4484
Gr@@ 4480
zi@@ 4432
neu@@ 4358
ken@@ 4357
ho@@ 4352
du@@ 4349
gt 4330
gen, 4241
cht@@ 4238
ier 4237
Er 4231
sa@@ 4200
ie, 4184
icht 4178
to@@ 4173
mu@@ 4169
ot@@ 4156
wel@@ 4118
al 4086
00 4081
Te@@ 4047
end 4027
me@@ 4021
man@@ 4013
ts 3947
gesch@@ 3941
ap@@ 3863
Dan@@ 3835
ha@@ 3803
ste@@ 3800
vi@@ 3788
wor@@ 3778
gew@@ 3758
ze@@ 3737
De@@ 3731
ble@@ 3725
ig 3710
zie@@ 3681
dr@@ 3679
ze 3638
y 3616
ess@@ 3576
We@@ 3573
onder@@ 3567
ob@@ 3551
mo@@ 3533
inter@@ 3520
In 3519
eigen@@ 3454
9@@ 3430
bl@@ 3407
♫ 3397
del@@ 3395
pt@@ 3340
gen. 3338
na@@ 3322
kun@@ 3319
and@@ 3287
ien 3281
han@@ 3248
ten@@ 3239
de, 3233
imm@@ 3211
ur 3177
andere 3167
ne@@ 3163
5@@ 3127
pass@@ 3126
en? 3118
ön@@ 3113
gi@@ 3097
ß 3092
bar@@ 3073
ensch@@ 3021
h 3008
ent 2990
versch@@ 2981
ik 2944
sit@@ 2938
pro@@ 2937
3@@ 2918
fr@@ 2915
ellen 2915
do@@ 2904
ster@@ 2890
isch 2877
ale 2860
dig@@ 2855
a, 2849
el 2833
ort 2818
TE@@ 2812
art@@ 2760
ing 2732
er. 2730
les 2659
chn@@ 2643
Mensch@@ 2612
ex@@ 2610
ende 2593
ant@@ 2585
ens 2584
alles 2566
no@@ 2555
waren 2533
or 2527
ke 2512
oo@@ 2508
de. 2491
dan@@ 2488
pr@@ 2463
ub@@ 2411
ic@@ 2407
pl@@ 2373
inder@@ 2367
ont@@ 2366
bin@@ 2365
?@@ 2337
D 2296
ga@@ 2277
gra@@ 2273
wan@@ 2273
5 2252
as@@ 2246
dur@@ 2240
tre@@ 2215
4@@ 2206
aar 2191
tel@@ 2189
em@@ 2188
q@@ 2169
aten 2164
chnolog@@ 2162
ser@@ 2159
sy@@ 2138
besch@@ 2102
Ü@@ 2094
us 2047
ingen 1995
sc@@ 1965
Als 1962
; 1939
nat@@ 1918
it 1893
mand 1881
8@@ 1865
beg@@ 1852
ve 1827
Da@@ 1804
ko@@ 1780
ken, 1758
alle@@ 1737
olog@@ 1721
6@@ 1705
ie. 1703
nie@@ 1690
! 1664
kte 1644
bt 1642
7@@ 1544
spe@@ 1516
k. 1501
pa@@ 1468
g. 1462
eren 1450
Q@@ 1447
Ä@@ 1419
ide@@ 1415
A 1411
eld 1384
Y@@ 1376
Ö@@ 1372
bel@@ 1367
zel@@ 1361
og@@ 1322
hel@@ 1318
2 1317
ber 1282
w 1251
'@@ 1231
ven 1202
za@@ 1181
v 1171
„@@ 1171
pen 1150
,@@ 1144
enn 1122
min@@ 1121
ve@@ 1094
tu@@ 1094
p 1089
meh@@ 1075
ker@@ 1069
kel@@ 1055
ken. 1017
3 981
zo@@ 980
dt 977
% 949
dig 938
sl@@ 926
4 923
8 922
x 918
aa@@ 914
ac@@ 891
1 886
eer@@ 805
stu@@ 799
6 798
“ 789
♪ 765
7 747
vol@@ 735
ef@@ 729
je 723
ou@@ 709
[@@ 686
llen 634
's 596
ke@@ 592
] 578
9 573
S 520
ed@@ 512
worden 499
om 492
id@@ 488
' 464
!@@ 442
aat@@ 419
c 416
is. 413
heb@@ 409
ir 396
aar@@ 390
op 354
&@@ 344
ci@@ 332
ull@@ 324
atie 322
/@@ 321
»@@ 320
van@@ 316
;@@ 305
ov@@ 302
zon@@ 299
of 291
ons 289
hu@@ 274
oe@@ 263
« 262
C 255
I 254
“@@ 254
–@@ 233
uit@@ 230
V 224
ct@@ 216
T 202
— 196
aat 193
oor@@ 190
 @@ 189
X@@ 188
com@@ 178
een 164
O 160
P 157
Je 155
ook 152
]@@ 144
%@@ 137
:@@ 126
N 121
B 116
vin@@ 108
é@@ 105
twe@@ 102
aal 101
$@@ 91
M 90
E 81
«@@ 80
lev@@ 77
van 77
con@@ 77
over 73
” 72
L 71
tot 70
K 68
R 66
over@@ 66
›@@ 66
… 63
U 62
/ 60
X 59
$ 59
kön@@ 57
G 57
β@@ 56
W 55
met 54
ij@@ 54
aal@@ 54
é 53
’@@ 51
dat 50
we 50
dit 49
F 47
á@@ 45
H 43
dan 42
hoo@@ 39
= 38
♫@@ 38
‹@@ 37
[ 35
°@@ 33
kan 32
½ 32
ó@@ 31
í@@ 31
Q 30
‘ 30
´@@ 30
+ 30
‹ 29
» 28
‘@@ 28
² 28
Y 27
ç@@ 27
è@@ 27
Z 25
moe@@ 24
‟ 24
‒ 23
_@@ 23
‚@@ 22
meer 22
We 21
) 20
J 18
Ze 18
ã@@ 18
@@@ 16
j 16
ñ@@ 15
iets 14
—@@ 14
° 14
oor 13
De 13
”@@ 12
zelf@@ 12
+@@ 12
heid 11
ü 10
het 10
à 10
#@@ 10
aan@@ 10
’ 10
zien 10
zo 10
mensen 9
uit 9
­@@ 9
²@@ 8
…@@ 8
á 8
à@@ 8
@@ 8
ø@@ 8
€ 7
onze 7
(@@ 6
ó 6
eft 5
=@@ 5
hoe 5
^ 5
í 5
gev@@ 5
@@ 5
  4
´ 4
É@@ 4
q 4
â@@ 4
ê@@ 4
^@@ 4
½@@ 4
„ 4
hun 4
_ 4
@@ 4
¼ 3
aan 3
œ@@ 3
¥ 3
ú@@ 3
™ 3
door 3
ā@@ 3
wat 3
`@@ 3
*@@ 3
raa@@ 3
β 3
ô@@ 3
è 3
‟@@ 3
Å@@ 3
×@@ 3
toe@@ 2
niet 2
♪@@ 2
³ 2
® 2
ë@@ 2
` 2
heb 2
ö 2
ý@@ 2
Á@@ 2
ć@@ 2
¶ 2
€@@ 2
¡@@ 2
ī@@ 2
¾ 1
* 1
En 1
)@@ 1
© 1
@ 1
к@@ 1
š@@ 1
£ 1
Ç@@ 1
ï@@ 1
， 1
nu 1
î@@ 1
gebru@@ 1
Ӓ@@ 1
ō@@ 1
送@@ 1
你@@ 1
葱 1
³@@ 1
﻿@@ 1
vro@@ 1
 1
@@ 1
Č@@ 1
ć 1
Ű@@ 1
maa@@ 1
ě@@ 1
ï 1
ā 1
ū@@ 1
